TRT-8601-EntropyCalibration2
img: 3c9cdc9b
1827: 3c9cdc9b
224: 3d0f1047
238: 3d0f1047
239: 3d0f1047
250: 3d5f5011
(Unnamed Layer* 5) [Constant]_output: 3bdd84da
(Unnamed Layer* 6) [Shuffle]_output: 3bdd84da
251: 3bc1aee2
(Unnamed Layer* 8) [Constant]_output: 3adfb89e
(Unnamed Layer* 9) [Shuffle]_output: 3adfb89e
252: 3b981f73
263: 3d2e5293
(Unnamed Layer* 12) [Constant]_output: 3ca5336f
(Unnamed Layer* 13) [Shuffle]_output: 3ca5336f
264: 3dd73a47
(Unnamed Layer* 15) [Constant]_output: 3c7c50f8
(Unnamed Layer* 16) [Shuffle]_output: 3c7c50f8
265: 3dd6c82f
(Unnamed Layer* 18) [Constant]_output: 3b9b1ad4
(Unnamed Layer* 19) [Shuffle]_output: 3b9b1ad4
276: 3da287f2
290: 3dd6c82f
(Unnamed Layer* 22) [Constant]_output: 3cd8f345
(Unnamed Layer* 23) [Shuffle]_output: 3cd8f345
277: 3dcd375f
296: 3dd6c82f
288: 3dcd375f
297: 400ed8a1
289: 3dcd375f
303: 400ed8a1
304: 400ed8a1
315: 3d52a783
(Unnamed Layer* 32) [Constant]_output: 3b9695f6
(Unnamed Layer* 33) [Shuffle]_output: 3b9695f6
316: 3c8e15e6
(Unnamed Layer* 35) [Constant]_output: 3b9102d9
(Unnamed Layer* 36) [Shuffle]_output: 3b9102d9
317: 3ca0900a
(Unnamed Layer* 38) [Constant]_output: 3b96ac41
(Unnamed Layer* 39) [Shuffle]_output: 3b96ac41
319: 3c3c2c24
(Unnamed Layer* 41) [Constant]_output: 3c7541a2
(Unnamed Layer* 42) [Shuffle]_output: 3c7541a2
320: 3ca2ec06
334: 3ca2ec06
335: 3ca2ec06
337: 3cabb3e3
339: 3b35769f
340: 3cabb3e3
341: 4027e918
(Unnamed Layer* 53) [Shuffle]_output: 3a810a14
343: 3ea7e918
(Unnamed Layer* 55) [Shuffle]_output: 3ea7e918
(Unnamed Layer* 56) [Softmax]_output: 3a5c19b9
344: 3a5c19b9
345: 3b0ab800
346: 3b0ab800
351: 3b0ab800
(Unnamed Layer* 61) [Constant]_output: 3ad0bdca
(Unnamed Layer* 62) [Shuffle]_output: 3ad0bdca
353: 3a75554f
(Unnamed Layer* 64) [Constant]_output: 3a30875a
(Unnamed Layer* 65) [Shuffle]_output: 3a30875a
354: 3a6b2f23
355: 3bb21808
366: 3d3b7f24
(Unnamed Layer* 69) [Constant]_output: 3d6835f5
(Unnamed Layer* 70) [Shuffle]_output: 3d6835f5
367: 3e58b280
(Unnamed Layer* 72) [Constant]_output: 3c7b0945
(Unnamed Layer* 73) [Shuffle]_output: 3c7b0945
368: 3e5c2e8a
(Unnamed Layer* 75) [Constant]_output: 3b813826
(Unnamed Layer* 76) [Shuffle]_output: 3b813826
370: 3e6c634a
(Unnamed Layer* 78) [Constant]_output: 3d609695
(Unnamed Layer* 79) [Shuffle]_output: 3d609695
371: 3e7789a9
378: 3e7789a9
384: 3e7789a9
385: 3da14499
393: 3da14499
394: 3da14499
(Unnamed Layer* 87) [Shuffle]_output: 3c367d3d
396: 3d64113d
397: 3c010a14
(Unnamed Layer* 91) [Shuffle]_output: 3c010a14
399: 3c810a14
400: 3dbc3bbf
(Unnamed Layer* 95) [Shuffle]_output: 3b810a14
402: 3d3c3bbf
(Unnamed Layer* 97) [Constant]_output: 3afcaa59
(Unnamed Layer* 98) [Shuffle]_output: 3afcaa59
404: 3ca5f9b1
(Unnamed Layer* 100) [Constant]_output: 3bad2213
(Unnamed Layer* 101) [Shuffle]_output: 3bad2213
405: 3caedc57
406: 3cb5fd08
417: 3d3292b7
(Unnamed Layer* 105) [Constant]_output: 3caab53d
(Unnamed Layer* 106) [Shuffle]_output: 3caab53d
418: 3daa6c7e
(Unnamed Layer* 108) [Constant]_output: 3c1a17f4
(Unnamed Layer* 109) [Shuffle]_output: 3c1a17f4
419: 3d9f6137
(Unnamed Layer* 111) [Constant]_output: 3b4165c8
(Unnamed Layer* 112) [Shuffle]_output: 3b4165c8
430: 3d37120e
444: 3d9f6137
(Unnamed Layer* 115) [Constant]_output: 3c886c33
(Unnamed Layer* 116) [Shuffle]_output: 3c886c33
431: 3d5a0c88
450: 3d9f6137
442: 3d5a0c88
451: 3f333379
443: 3d5a0c88
457: 3f333379
458: 3f333379
469: 3d2847f9
(Unnamed Layer* 125) [Constant]_output: 3c3466b4
(Unnamed Layer* 126) [Shuffle]_output: 3c3466b4
470: 3d11a4c4
(Unnamed Layer* 128) [Constant]_output: 3c0862d7
(Unnamed Layer* 129) [Shuffle]_output: 3c0862d7
471: 3d0f6b3d
(Unnamed Layer* 131) [Constant]_output: 3b6c9a9b
(Unnamed Layer* 132) [Shuffle]_output: 3b6c9a9b
473: 3cd19111
(Unnamed Layer* 134) [Constant]_output: 3c939107
(Unnamed Layer* 135) [Shuffle]_output: 3c939107
474: 3cfa958e
488: 3cfa958e
489: 3cfa958e
491: 3d0e358d
493: 3c276fb1
494: 3d0e358d
495: 3fccc8ee
(Unnamed Layer* 143) [Shuffle]_output: 3a810a14
497: 3e4cc8ee
(Unnamed Layer* 145) [Shuffle]_output: 3e4cc8ee
(Unnamed Layer* 146) [Softmax]_output: 39df79b0
498: 39df79b0
499: 3baa4257
500: 3baa4257
505: 3baa4257
(Unnamed Layer* 151) [Constant]_output: 3ae6b90e
(Unnamed Layer* 152) [Shuffle]_output: 3ae6b90e
507: 3b56c2a1
(Unnamed Layer* 154) [Constant]_output: 3ad2a26e
(Unnamed Layer* 155) [Shuffle]_output: 3ad2a26e
508: 3b545d0d
509: 3cafbabc
520: 3d3e4091
(Unnamed Layer* 159) [Constant]_output: 3d623a53
(Unnamed Layer* 160) [Shuffle]_output: 3d623a53
521: 3e64f7d9
(Unnamed Layer* 162) [Constant]_output: 3c8e6c3a
(Unnamed Layer* 163) [Shuffle]_output: 3c8e6c3a
522: 3e5c56b5
(Unnamed Layer* 165) [Constant]_output: 3b1d163b
(Unnamed Layer* 166) [Shuffle]_output: 3b1d163b
524: 3e1def72
(Unnamed Layer* 168) [Constant]_output: 3ccae05c
(Unnamed Layer* 169) [Shuffle]_output: 3ccae05c
525: 3e261c88
532: 3e261c88
538: 3e261c88
539: 3df5ed70
547: 3df5ed70
548: 3df5ed70
(Unnamed Layer* 176) [Shuffle]_output: 3c367d3d
550: 3dade5a1
551: 3c010a14
(Unnamed Layer* 179) [Shuffle]_output: 3c010a14
553: 3c810a14
554: 3cffbae6
(Unnamed Layer* 182) [Shuffle]_output: 3b810a14
556: 3c7fbae6
(Unnamed Layer* 184) [Constant]_output: 3ba47aab
(Unnamed Layer* 185) [Shuffle]_output: 3ba47aab
558: 3cec9c45
(Unnamed Layer* 187) [Constant]_output: 3b8a9999
(Unnamed Layer* 188) [Shuffle]_output: 3b8a9999
559: 3d5477f6
560: 3d5981b2
571: 3d6f6a8b
(Unnamed Layer* 192) [Constant]_output: 3c27c48b
(Unnamed Layer* 193) [Shuffle]_output: 3c27c48b
572: 3d1a1998
(Unnamed Layer* 195) [Constant]_output: 3bfe9ca0
(Unnamed Layer* 196) [Shuffle]_output: 3bfe9ca0
573: 3d02a5f3
580: 3d02a5f3
581: 3d02a5f3
582: 3dd17950
1721: 3d02a5f3
596: 3dd17950
1722: 3d02a5f3
597: 3dd17950
(Unnamed Layer* 205) [Constant]_output: 3bbd3518
(Unnamed Layer* 206) [Shuffle]_output: 3bbd3518
1724: 3d46e97f
(Unnamed Layer* 208) [Constant]_output: 3a510fc5
(Unnamed Layer* 209) [Shuffle]_output: 3a510fc5
1725: 3d48f8c4
608: 3d962b7e
(Unnamed Layer* 212) [Constant]_output: 3bc439a7
(Unnamed Layer* 213) [Shuffle]_output: 3bc439a7
609: 3c74aa2a
1726: 3d48f8c4
(Unnamed Layer* 216) [Constant]_output: 3b9258af
(Unnamed Layer* 217) [Shuffle]_output: 3b9258af
610: 3c75c7e9
1739: 3d48f8c4
621: 3d357bf6
(Unnamed Layer* 221) [Constant]_output: 3c67ffda
(Unnamed Layer* 222) [Shuffle]_output: 3c67ffda
622: 3d452d6c
(Unnamed Layer* 224) [Constant]_output: 3c0114ea
(Unnamed Layer* 225) [Shuffle]_output: 3c0114ea
623: 3d40ec8d
(Unnamed Layer* 227) [Constant]_output: 3b32ac5d
(Unnamed Layer* 228) [Shuffle]_output: 3b32ac5d
634: 3d514707
648: 3d40ec8d
(Unnamed Layer* 231) [Constant]_output: 3c5c7725
(Unnamed Layer* 232) [Shuffle]_output: 3c5c7725
635: 3d541e13
654: 3d40ec8d
646: 3d541e13
655: 3e94c2af
647: 3d541e13
661: 3e94c2af
662: 3e94c2af
673: 3d470091
(Unnamed Layer* 241) [Constant]_output: 3be1adc4
(Unnamed Layer* 242) [Shuffle]_output: 3be1adc4
674: 3ca49002
(Unnamed Layer* 244) [Constant]_output: 3b2582b8
(Unnamed Layer* 245) [Shuffle]_output: 3b2582b8
675: 3c9f8eba
(Unnamed Layer* 247) [Constant]_output: 3b420fb0
(Unnamed Layer* 248) [Shuffle]_output: 3b420fb0
677: 3c8c43ed
(Unnamed Layer* 250) [Constant]_output: 3c3dbd98
(Unnamed Layer* 251) [Shuffle]_output: 3c3dbd98
678: 3cd42b41
692: 3cd42b41
693: 3cd42b41
695: 3cd2930f
697: 3c41b2d4
698: 3cd2930f
699: 3f7acd67
(Unnamed Layer* 259) [Shuffle]_output: 3a810a14
701: 3dfacd67
(Unnamed Layer* 261) [Shuffle]_output: 3dfacd67
(Unnamed Layer* 262) [Softmax]_output: 3a237de8
702: 3a237de8
703: 3bed44f6
704: 3bed44f6
709: 3bed44f6
(Unnamed Layer* 267) [Constant]_output: 3ac9458c
(Unnamed Layer* 268) [Shuffle]_output: 3ac9458c
711: 3b591682
(Unnamed Layer* 270) [Constant]_output: 3b04e255
(Unnamed Layer* 271) [Shuffle]_output: 3b04e255
712: 3b6e5ad5
713: 3c7e9a45
724: 3d56bd64
(Unnamed Layer* 275) [Constant]_output: 3d2fab32
(Unnamed Layer* 276) [Shuffle]_output: 3d2fab32
725: 3e2cd179
(Unnamed Layer* 278) [Constant]_output: 3c71dd83
(Unnamed Layer* 279) [Shuffle]_output: 3c71dd83
726: 3e30dd25
(Unnamed Layer* 281) [Constant]_output: 3b0bb014
(Unnamed Layer* 282) [Shuffle]_output: 3b0bb014
728: 3e2bdb6a
(Unnamed Layer* 284) [Constant]_output: 3c9005e3
(Unnamed Layer* 285) [Shuffle]_output: 3c9005e3
729: 3e2b6ae7
736: 3e2b6ae7
742: 3e2b6ae7
743: 3d6e339f
751: 3d6e339f
752: 3d6e339f
(Unnamed Layer* 292) [Shuffle]_output: 3c367d3d
754: 3d286f1b
755: 3c010a14
(Unnamed Layer* 295) [Shuffle]_output: 3c010a14
757: 3c811220
758: 3cdbc8ed
(Unnamed Layer* 298) [Shuffle]_output: 3b810a14
760: 3c5bc8ed
(Unnamed Layer* 300) [Constant]_output: 3b2c0cae
(Unnamed Layer* 301) [Shuffle]_output: 3b2c0cae
762: 3c77f4c4
(Unnamed Layer* 303) [Constant]_output: 3b5e78d2
(Unnamed Layer* 304) [Shuffle]_output: 3b5e78d2
763: 3c9dbee8
764: 3cc6216f
775: 3d6b15a5
(Unnamed Layer* 308) [Constant]_output: 3c984d2e
(Unnamed Layer* 309) [Shuffle]_output: 3c984d2e
776: 3d6293d2
(Unnamed Layer* 311) [Constant]_output: 3bcf7ed8
(Unnamed Layer* 312) [Shuffle]_output: 3bcf7ed8
777: 3d5f66ed
(Unnamed Layer* 314) [Constant]_output: 3b10fa78
(Unnamed Layer* 315) [Shuffle]_output: 3b10fa78
788: 3d4f8f7a
802: 3d5f66ed
(Unnamed Layer* 318) [Constant]_output: 3cbb455c
(Unnamed Layer* 319) [Shuffle]_output: 3cbb455c
789: 3d5438ae
808: 3d5f66ed
800: 3d5438ae
809: 3e9bf9d9
801: 3d5438ae
815: 3e9bf9d9
816: 3e9bf9d9
827: 3d1491a4
(Unnamed Layer* 328) [Constant]_output: 3c30b630
(Unnamed Layer* 329) [Shuffle]_output: 3c30b630
828: 3cde1315
(Unnamed Layer* 331) [Constant]_output: 3b85548f
(Unnamed Layer* 332) [Shuffle]_output: 3b85548f
829: 3cdb68ed
(Unnamed Layer* 334) [Constant]_output: 3b58d086
(Unnamed Layer* 335) [Shuffle]_output: 3b58d086
831: 3cc93535
(Unnamed Layer* 337) [Constant]_output: 3bc43dd7
(Unnamed Layer* 338) [Shuffle]_output: 3bc43dd7
832: 3cc5c195
846: 3cc5c195
847: 3cc5c195
849: 3d00b84d
851: 3c5d1fc9
852: 3d00b84d
853: 3f41da69
(Unnamed Layer* 346) [Shuffle]_output: 3a810a14
855: 3dc1da69
(Unnamed Layer* 348) [Shuffle]_output: 3dc1da69
(Unnamed Layer* 349) [Softmax]_output: 3a49e838
856: 3a49e838
857: 3bc2dda5
858: 3bc2dda5
863: 3bc2dda5
(Unnamed Layer* 354) [Constant]_output: 3b2970b0
(Unnamed Layer* 355) [Shuffle]_output: 3b2970b0
865: 3c030ff9
(Unnamed Layer* 357) [Constant]_output: 3a4a8388
(Unnamed Layer* 358) [Shuffle]_output: 3a4a8388
866: 3c0c4523
867: 3ce91294
878: 3d747af4
(Unnamed Layer* 362) [Constant]_output: 3d37eed4
(Unnamed Layer* 363) [Shuffle]_output: 3d37eed4
879: 3e2ff9eb
(Unnamed Layer* 365) [Constant]_output: 3c8657d4
(Unnamed Layer* 366) [Shuffle]_output: 3c8657d4
880: 3e2e2537
(Unnamed Layer* 368) [Constant]_output: 3b0f7bb0
(Unnamed Layer* 369) [Shuffle]_output: 3b0f7bb0
882: 3e78fcbd
(Unnamed Layer* 371) [Constant]_output: 3cd0fe79
(Unnamed Layer* 372) [Shuffle]_output: 3cd0fe79
883: 3e946a80
890: 3e946a80
896: 3e946a80
897: 3e31ed0f
905: 3e31ed0f
906: 3e31ed0f
(Unnamed Layer* 379) [Shuffle]_output: 3c367d3d
908: 3dfba019
909: 3c010a14
(Unnamed Layer* 382) [Shuffle]_output: 3c010a14
911: 3c810a14
912: 3d4eb391
(Unnamed Layer* 385) [Shuffle]_output: 3b810a14
914: 3cceb391
(Unnamed Layer* 387) [Constant]_output: 3bd1bba9
(Unnamed Layer* 388) [Shuffle]_output: 3bd1bba9
916: 3d9f33de
(Unnamed Layer* 390) [Constant]_output: 3d8e70a8
(Unnamed Layer* 391) [Shuffle]_output: 3d8e70a8
917: 3dea3001
918: 3e1f1463
929: 3db3dc6f
(Unnamed Layer* 395) [Constant]_output: 3c32a01a
(Unnamed Layer* 396) [Shuffle]_output: 3c32a01a
930: 3d15f510
(Unnamed Layer* 398) [Constant]_output: 3b88ff20
(Unnamed Layer* 399) [Shuffle]_output: 3b88ff20
931: 3d0a7ce3
938: 3d0a7ce3
939: 3d0a7ce3
940: 3f076096
1684: 3d0a7ce3
954: 3f076096
1685: 3d0a7ce3
955: 3f076096
(Unnamed Layer* 408) [Constant]_output: 3baddec5
(Unnamed Layer* 409) [Shuffle]_output: 3baddec5
1687: 3d8c7fd4
(Unnamed Layer* 411) [Constant]_output: 3a18180d
(Unnamed Layer* 412) [Shuffle]_output: 3a18180d
1688: 3d866a3f
966: 3e060181
(Unnamed Layer* 415) [Constant]_output: 3c56b54b
(Unnamed Layer* 416) [Shuffle]_output: 3c56b54b
967: 3cbde8b9
1689: 3d866a3f
(Unnamed Layer* 419) [Constant]_output: 3b6b36e5
(Unnamed Layer* 420) [Shuffle]_output: 3b6b36e5
968: 3d016bb4
1702: 3d866a3f
1713: 3d5f3e69
979: 3d8f61fd
(Unnamed Layer* 426) [Constant]_output: 3cbb8a65
(Unnamed Layer* 427) [Shuffle]_output: 3cbb8a65
980: 3d47b09c
(Unnamed Layer* 429) [Constant]_output: 3ba841ef
(Unnamed Layer* 430) [Shuffle]_output: 3ba841ef
981: 3d48b182
(Unnamed Layer* 432) [Constant]_output: 3b0df984
(Unnamed Layer* 433) [Shuffle]_output: 3b0df984
992: 3dad7e50
1006: 3d48b182
(Unnamed Layer* 436) [Constant]_output: 3cb9bdea
(Unnamed Layer* 437) [Shuffle]_output: 3cb9bdea
993: 3db13c5c
1012: 3d48b182
1004: 3db13c5c
1013: 3e60eefc
1005: 3db13c5c
1019: 3e60eefc
1020: 3e60eefc
1031: 3d4bdace
(Unnamed Layer* 446) [Constant]_output: 3b9ed12c
(Unnamed Layer* 447) [Shuffle]_output: 3b9ed12c
1032: 3c617174
(Unnamed Layer* 449) [Constant]_output: 3afab908
(Unnamed Layer* 450) [Shuffle]_output: 3afab908
1033: 3c59cbeb
(Unnamed Layer* 452) [Constant]_output: 3b2c7e66
(Unnamed Layer* 453) [Shuffle]_output: 3b2c7e66
1035: 3ca6b119
(Unnamed Layer* 455) [Constant]_output: 3bf7c1c6
(Unnamed Layer* 456) [Shuffle]_output: 3bf7c1c6
1036: 3cb5e7e1
1050: 3cb5e7e1
1051: 3cb5e7e1
1053: 3cbe7417
1055: 3c599595
1056: 3cbe7417
1057: 3f86cda9
(Unnamed Layer* 464) [Shuffle]_output: 3a810a14
1059: 3e06cda9
(Unnamed Layer* 466) [Shuffle]_output: 3e06cda9
(Unnamed Layer* 467) [Softmax]_output: 3a7e9a8e
1060: 3a7e9a8e
1061: 3c28bb75
1062: 3c28bb75
1067: 3c28bb75
(Unnamed Layer* 472) [Constant]_output: 3ae58d86
(Unnamed Layer* 473) [Shuffle]_output: 3ae58d86
1069: 3c00a84f
(Unnamed Layer* 475) [Constant]_output: 3affb032
(Unnamed Layer* 476) [Shuffle]_output: 3affb032
1070: 3bcb0317
1071: 3cfc683a
1082: 3d8f8c87
(Unnamed Layer* 480) [Constant]_output: 3d0bb248
(Unnamed Layer* 481) [Shuffle]_output: 3d0bb248
1083: 3e4286af
(Unnamed Layer* 483) [Constant]_output: 3c44286a
(Unnamed Layer* 484) [Shuffle]_output: 3c44286a
1084: 3e47e706
(Unnamed Layer* 486) [Constant]_output: 3b25f962
(Unnamed Layer* 487) [Shuffle]_output: 3b25f962
1086: 3e92e0b2
(Unnamed Layer* 489) [Constant]_output: 3c99dc5c
(Unnamed Layer* 490) [Shuffle]_output: 3c99dc5c
1087: 3ea30561
1094: 3ea30561
1100: 3ea30561
1101: 3e598a25
1109: 3e598a25
1110: 3e598a25
(Unnamed Layer* 497) [Shuffle]_output: 3c367d3d
1112: 3e19d2e2
1113: 3c010a14
(Unnamed Layer* 500) [Shuffle]_output: 3c010a14
1115: 3c810a14
1116: 3da0dc4f
(Unnamed Layer* 503) [Shuffle]_output: 3b810a14
1118: 3d20dc4f
(Unnamed Layer* 505) [Constant]_output: 3b80973b
(Unnamed Layer* 506) [Shuffle]_output: 3b80973b
1120: 3d1d2fa5
(Unnamed Layer* 508) [Constant]_output: 3b2cdc52
(Unnamed Layer* 509) [Shuffle]_output: 3b2cdc52
1121: 3d1ec025
1122: 3d77bd0a
1133: 3dbad934
(Unnamed Layer* 513) [Constant]_output: 3c8cdf99
(Unnamed Layer* 514) [Shuffle]_output: 3c8cdf99
1134: 3d557c8d
(Unnamed Layer* 516) [Constant]_output: 3bd4f7b4
(Unnamed Layer* 517) [Shuffle]_output: 3bd4f7b4
1135: 3d449ad7
(Unnamed Layer* 519) [Constant]_output: 3b005162
(Unnamed Layer* 520) [Shuffle]_output: 3b005162
1146: 3d8466da
1160: 3d449ad7
(Unnamed Layer* 523) [Constant]_output: 3cf2105f
(Unnamed Layer* 524) [Shuffle]_output: 3cf2105f
1147: 3d8dc380
1166: 3d449ad7
1158: 3d8dc380
1167: 3e7ad88b
1159: 3d8dc380
1173: 3e7ad88b
1174: 3e7ad88b
1185: 3d36971b
(Unnamed Layer* 533) [Constant]_output: 3be56cd4
(Unnamed Layer* 534) [Shuffle]_output: 3be56cd4
1186: 3cc50896
(Unnamed Layer* 536) [Constant]_output: 3b15b2d8
(Unnamed Layer* 537) [Shuffle]_output: 3b15b2d8
1187: 3cce4ac8
(Unnamed Layer* 539) [Constant]_output: 3b23e45f
(Unnamed Layer* 540) [Shuffle]_output: 3b23e45f
1189: 3cec72f3
(Unnamed Layer* 542) [Constant]_output: 3be772e9
(Unnamed Layer* 543) [Shuffle]_output: 3be772e9
1190: 3ce3dca9
1204: 3ce3dca9
1205: 3ce3dca9
1207: 3cfa80a0
1209: 3c994bac
1210: 3cfa80a0
1211: 3f608b1b
(Unnamed Layer* 551) [Shuffle]_output: 3a810a14
1213: 3de08b1b
(Unnamed Layer* 553) [Shuffle]_output: 3de08b1b
(Unnamed Layer* 554) [Softmax]_output: 3a86c585
1214: 3a86c585
1215: 3c1bc61c
1216: 3c1bc61c
1221: 3c1bc61c
(Unnamed Layer* 559) [Constant]_output: 3b820199
(Unnamed Layer* 560) [Shuffle]_output: 3b820199
1223: 3cfd4ce7
(Unnamed Layer* 562) [Constant]_output: 3ae46243
(Unnamed Layer* 563) [Shuffle]_output: 3ae46243
1224: 3d258fa4
1225: 3dab8ed2
1236: 3ddbee1b
(Unnamed Layer* 567) [Constant]_output: 3d04c4fb
(Unnamed Layer* 568) [Shuffle]_output: 3d04c4fb
1237: 3e4c5169
(Unnamed Layer* 570) [Constant]_output: 3c2d8d4f
(Unnamed Layer* 571) [Shuffle]_output: 3c2d8d4f
1238: 3e4bfba5
(Unnamed Layer* 573) [Constant]_output: 3b0c6a50
(Unnamed Layer* 574) [Shuffle]_output: 3b0c6a50
1240: 3e3b9dc7
(Unnamed Layer* 576) [Constant]_output: 3c4f9787
(Unnamed Layer* 577) [Shuffle]_output: 3c4f9787
1241: 3e4934bc
1248: 3e4934bc
1254: 3e4934bc
1255: 3e30a3ca
1263: 3e30a3ca
1264: 3e30a3ca
(Unnamed Layer* 584) [Shuffle]_output: 3c367d3d
1266: 3df9ce70
1267: 3c010a14
(Unnamed Layer* 587) [Shuffle]_output: 3c010a14
1269: 3c810a14
1270: 3def2837
(Unnamed Layer* 590) [Shuffle]_output: 3b810a14
1272: 3d6f2837
(Unnamed Layer* 592) [Constant]_output: 3bd97ccd
(Unnamed Layer* 593) [Shuffle]_output: 3bd97ccd
1274: 3de30bec
(Unnamed Layer* 595) [Constant]_output: 3e336c1f
(Unnamed Layer* 596) [Shuffle]_output: 3e336c1f
1275: 3dd08db7
1276: 3e6228ef
1287: 3e0f0438
(Unnamed Layer* 600) [Constant]_output: 3c52c7c6
(Unnamed Layer* 601) [Shuffle]_output: 3c52c7c6
1288: 3d19bbd0
(Unnamed Layer* 603) [Constant]_output: 3b04ec3c
(Unnamed Layer* 604) [Shuffle]_output: 3b04ec3c
1289: 3d13989a
1296: 3d13989a
1297: 3d13989a
1298: 3f79b19d
1647: 3d13989a
1312: 3f79b19d
1648: 3d13989a
1313: 3f79b19d
(Unnamed Layer* 613) [Constant]_output: 3b8f4515
(Unnamed Layer* 614) [Shuffle]_output: 3b8f4515
1650: 3de70d90
(Unnamed Layer* 616) [Constant]_output: 3a108adb
(Unnamed Layer* 617) [Shuffle]_output: 3a108adb
1651: 3ddd49be
1324: 3e28b344
(Unnamed Layer* 620) [Constant]_output: 3c5d208d
(Unnamed Layer* 621) [Shuffle]_output: 3c5d208d
1325: 3db4668d
1652: 3ddd49be
(Unnamed Layer* 624) [Constant]_output: 3bd4cc9c
(Unnamed Layer* 625) [Shuffle]_output: 3bd4cc9c
1326: 3da72373
1665: 3ddd49be
1676: 3dc25656
1337: 3dc04b80
(Unnamed Layer* 630) [Constant]_output: 3c12d457
(Unnamed Layer* 631) [Shuffle]_output: 3c12d457
1338: 3d2ebe50
(Unnamed Layer* 633) [Constant]_output: 3ad7f48d
(Unnamed Layer* 634) [Shuffle]_output: 3ad7f48d
1339: 3d18029c
(Unnamed Layer* 636) [Constant]_output: 3b10cc74
(Unnamed Layer* 637) [Shuffle]_output: 3b10cc74
1350: 3d25a812
(Unnamed Layer* 639) [Constant]_output: 3b239d5c
(Unnamed Layer* 640) [Shuffle]_output: 3b239d5c
1365: 3d0f419c
(Unnamed Layer* 642) [Constant]_output: 3c5fda1c
(Unnamed Layer* 643) [Shuffle]_output: 3c5fda1c
1351: 3d275579
(Unnamed Layer* 645) [Constant]_output: 3ba90987
(Unnamed Layer* 646) [Shuffle]_output: 3ba90987
1366: 3d1c23af
1362: 3d275579
1380: 3d1c23af
1363: 3d275579
1381: 3d1c23af
1383: 3d1c23af
1385: 3cb5d215
1386: 3d1c23af
1387: 3f4dfef9
(Unnamed Layer* 656) [Shuffle]_output: 3a810a14
1389: 3dcdfef9
(Unnamed Layer* 658) [Shuffle]_output: 3dcdfef9
(Unnamed Layer* 659) [Softmax]_output: 3a1ee9d1
1390: 3a1ee9d1
1391: 3c4adbd2
1392: 3c4adbd2
1397: 3c4adbd2
(Unnamed Layer* 664) [Constant]_output: 3b0643f1
(Unnamed Layer* 665) [Shuffle]_output: 3b0643f1
1399: 3c40a751
(Unnamed Layer* 667) [Constant]_output: 3b4d68e8
(Unnamed Layer* 668) [Shuffle]_output: 3b4d68e8
1400: 3c3f6a57
1401: 3da2780d
1412: 3da7e04d
(Unnamed Layer* 672) [Constant]_output: 3ce75516
(Unnamed Layer* 673) [Shuffle]_output: 3ce75516
1413: 3e3aecca
(Unnamed Layer* 675) [Constant]_output: 3c921ad3
(Unnamed Layer* 676) [Shuffle]_output: 3c921ad3
1414: 3e4f0265
(Unnamed Layer* 678) [Constant]_output: 3b02ecfa
(Unnamed Layer* 679) [Shuffle]_output: 3b02ecfa
1416: 3ea1070d
(Unnamed Layer* 681) [Constant]_output: 3c202e2c
(Unnamed Layer* 682) [Shuffle]_output: 3c202e2c
1417: 3eaa73e4
1424: 3eaa73e4
1430: 3eaa73e4
1431: 3e24a97c
1439: 3e24a97c
1440: 3e24a97c
(Unnamed Layer* 689) [Shuffle]_output: 3c367d3d
1442: 3de8de08
1443: 3c010a14
(Unnamed Layer* 692) [Shuffle]_output: 3c010a14
1445: 3c810a14
1446: 3ce40a6e
(Unnamed Layer* 695) [Shuffle]_output: 3b810a14
1448: 3c640a6e
(Unnamed Layer* 697) [Constant]_output: 3b410c08
(Unnamed Layer* 698) [Shuffle]_output: 3b410c08
1450: 3d26e741
(Unnamed Layer* 700) [Constant]_output: 3b1d73b0
(Unnamed Layer* 701) [Shuffle]_output: 3b1d73b0
1451: 3d91023b
1452: 3dc17852
1463: 3dc06caa
(Unnamed Layer* 705) [Constant]_output: 3be63cc6
(Unnamed Layer* 706) [Shuffle]_output: 3be63cc6
1464: 3da67032
(Unnamed Layer* 708) [Constant]_output: 3a994a81
(Unnamed Layer* 709) [Shuffle]_output: 3a994a81
1465: 3d8928af
(Unnamed Layer* 711) [Constant]_output: 3b047265
(Unnamed Layer* 712) [Shuffle]_output: 3b047265
1476: 3d26c59f
(Unnamed Layer* 714) [Constant]_output: 3b0e9a8c
(Unnamed Layer* 715) [Shuffle]_output: 3b0e9a8c
1491: 3d21016c
(Unnamed Layer* 717) [Constant]_output: 3cb8a7b1
(Unnamed Layer* 718) [Shuffle]_output: 3cb8a7b1
1477: 3d21164d
(Unnamed Layer* 720) [Constant]_output: 3bb48fe5
(Unnamed Layer* 721) [Shuffle]_output: 3bb48fe5
1492: 3d21e40b
1488: 3d21164d
1506: 3d21e40b
1489: 3d21164d
1507: 3d21e40b
1509: 3d2c7a48
1511: 3ce0255e
1512: 3d2c7a48
1513: 3f51f4f1
(Unnamed Layer* 731) [Shuffle]_output: 3a810a14
1515: 3dd1f4f1
(Unnamed Layer* 733) [Shuffle]_output: 3dd1f4f1
(Unnamed Layer* 734) [Softmax]_output: 3a909da9
1516: 3a909da9
1517: 3c8b0307
1518: 3c8b0307
1523: 3c8b0307
(Unnamed Layer* 739) [Constant]_output: 3b8490d6
(Unnamed Layer* 740) [Shuffle]_output: 3b8490d6
1525: 3d5987eb
(Unnamed Layer* 742) [Constant]_output: 3b93ef8b
(Unnamed Layer* 743) [Shuffle]_output: 3b93ef8b
1526: 3da7f62f
1527: 3e3bcdda
1538: 3df6d863
(Unnamed Layer* 747) [Constant]_output: 3d21143f
(Unnamed Layer* 748) [Shuffle]_output: 3d21143f
1539: 3e18db4a
(Unnamed Layer* 750) [Constant]_output: 3c857a54
(Unnamed Layer* 751) [Shuffle]_output: 3c857a54
1540: 3e1c4768
(Unnamed Layer* 753) [Constant]_output: 3b014999
(Unnamed Layer* 754) [Shuffle]_output: 3b014999
1542: 3e7b58b5
(Unnamed Layer* 756) [Constant]_output: 3c4dc2e6
(Unnamed Layer* 757) [Shuffle]_output: 3c4dc2e6
1543: 3e769dca
1550: 3e769dca
1556: 3e769dca
1557: 3e935da8
1565: 3e935da8
1566: 3e935da8
(Unnamed Layer* 764) [Shuffle]_output: 3c367d3d
1568: 3e506823
1569: 3c010a14
(Unnamed Layer* 767) [Shuffle]_output: 3c010a14
1571: 3c810a14
1572: 3d77a2b1
(Unnamed Layer* 770) [Shuffle]_output: 3b810a14
1574: 3cf7a2b1
(Unnamed Layer* 772) [Constant]_output: 3be80bd4
(Unnamed Layer* 773) [Shuffle]_output: 3be80bd4
1576: 3e13512b
(Unnamed Layer* 775) [Constant]_output: 3d7339e2
(Unnamed Layer* 776) [Shuffle]_output: 3d7339e2
1577: 3e4c98a3
1578: 3eb0c759
1589: 3de944cb
(Unnamed Layer* 780) [Constant]_output: 3cdc9f57
(Unnamed Layer* 781) [Shuffle]_output: 3cdc9f57
1590: 3d9d774c
(Unnamed Layer* 783) [Constant]_output: 3c02c8fd
(Unnamed Layer* 784) [Shuffle]_output: 3c02c8fd
1591: 3da378d3
1598: 3da378d3
1599: 3da378d3
1610: 3da378d3
1611: 3da378d3
(Unnamed Layer* 790) [Constant]_output: 3b86a866
(Unnamed Layer* 791) [Shuffle]_output: 3b86a866
1613: 3eefdde8
(Unnamed Layer* 793) [Constant]_output: 399c938a
(Unnamed Layer* 794) [Shuffle]_output: 399c938a
1614: 3eee9681
1615: 3eee9681
1628: 3eee9681
1639: 3ed0f869
1740: 3e7517c5
1801: 3d3dd460
1743: 3d23bb63
1744: 3e95de35
1755: 3e92e91b
1793: 3e92e91b
1794: 3dc1a890
1795: 3ea8c5ca
1796: 3c010a14
1797: 3cafaf72
1798: 3c010a14
(Unnamed Layer* 811) [TopK]_output: 3a9bf7f0
